TRT-7000-EntropyCalibration2
input_1: 3c010a14
conv1/convolution: 3d593237
conv1/BiasAdd: 3d593237
bn_conv1/batchnorm/mul_1: 3dea9d77
bn_conv1/batchnorm/add_1: 3d4311eb
activation_1/Relu: 3d250300
block_1a_conv_1/convolution: 3d8a0e8e
block_1a_conv_1/BiasAdd: 3d8a0e8e
block_1a_bn_1/batchnorm/mul_1: 3d04b723
block_1a_bn_1/batchnorm/add_1: 3d36f214
block_1a_relu_1/Relu: 3ced4bd8
block_1a_conv_2/convolution: 3d09af41
block_1a_conv_2/BiasAdd: 3d09af41
block_1a_bn_2/batchnorm/mul_1: 3d810409
block_1a_bn_2/batchnorm/add_1: 3d9e840d
block_1a_conv_shortcut/convolution: 3d17411a
block_1a_conv_shortcut/BiasAdd: 3d17411a
block_1a_bn_shortcut/batchnorm/mul_1: 3d855546
block_1a_bn_shortcut/batchnorm/add_1: 3d428dc5
add_1/add: 3d917af7
block_1a_relu/Relu: 3d3385a5
block_1b_conv_1/convolution: 3da93af4
block_1b_conv_1/BiasAdd: 3da93af4
block_1b_bn_1/batchnorm/mul_1: 3d6a22bf
block_1b_bn_1/batchnorm/add_1: 3d6468c7
block_1b_relu_1/Relu: 3cb116b8
block_1b_conv_2/convolution: 3d0c7c6d
block_1b_conv_2/BiasAdd: 3d0c7c6d
block_1b_bn_2/batchnorm/mul_1: 3db52cbb
block_1b_bn_2/batchnorm/add_1: 3d7be34b
add_2/add: 3dbba2b5
block_1b_relu/Relu: 3d6bdecc
block_2a_conv_1/convolution: 3e0965f8
block_2a_conv_1/BiasAdd: 3e0965f8
block_2a_bn_1/batchnorm/mul_1: 3d8a76e0
block_2a_bn_1/batchnorm/add_1: 3d54ae78
block_2a_relu_1/Relu: 3d0e62ae
block_2a_conv_2/convolution: 3d39aa37
block_2a_conv_2/BiasAdd: 3d39aa37
block_2a_bn_2/batchnorm/mul_1: 3d88e185
block_2a_bn_2/batchnorm/add_1: 3d73b76c
block_2a_conv_shortcut/convolution: 3d804c04
block_2a_conv_shortcut/BiasAdd: 3d804c04
block_2a_bn_shortcut/batchnorm/mul_1: 3d4811db
block_2a_bn_shortcut/batchnorm/add_1: 3d3d3771
add_3/add: 3dbabb6b
block_2a_relu/Relu: 3db2f569
block_2b_conv_1/convolution: 3e056985
block_2b_conv_1/BiasAdd: 3e056985
block_2b_bn_1/batchnorm/mul_1: 3d47416a
block_2b_bn_1/batchnorm/add_1: 3d6e4725
block_2b_relu_1/Relu: 3d0d8aa2
block_2b_conv_2/convolution: 3d248c01
block_2b_conv_2/BiasAdd: 3d248c01
block_2b_bn_2/batchnorm/mul_1: 3d600218
block_2b_bn_2/batchnorm/add_1: 3d534cc8
add_4/add: 3d91d65a
block_2b_relu/Relu: 3dbcad9a
block_3a_conv_1/convolution: 3dff4b17
block_3a_conv_1/BiasAdd: 3dff4b17
block_3a_bn_1/batchnorm/mul_1: 3d564a00
block_3a_bn_1/batchnorm/add_1: 3d203763
block_3a_relu_1/Relu: 3d057d4b
block_3a_conv_2/convolution: 3d181b30
block_3a_conv_2/BiasAdd: 3d181b30
block_3a_bn_2/batchnorm/mul_1: 3d751ff7
block_3a_bn_2/batchnorm/add_1: 3d74ca1d
block_3a_conv_shortcut/convolution: 3da3357b
block_3a_conv_shortcut/BiasAdd: 3da3357b
block_3a_bn_shortcut/batchnorm/mul_1: 3d4e7171
block_3a_bn_shortcut/batchnorm/add_1: 3d4f5bfc
add_5/add: 3d99c8a1
block_3a_relu/Relu: 3d66ffb8
block_3b_conv_1/convolution: 3dbf4e17
block_3b_conv_1/BiasAdd: 3dbf4e17
block_3b_bn_1/batchnorm/mul_1: 3d15f995
block_3b_bn_1/batchnorm/add_1: 3d14bc3a
block_3b_relu_1/Relu: 3d10e812
block_3b_conv_2/convolution: 3cca8f7e
block_3b_conv_2/BiasAdd: 3cca8f7e
block_3b_bn_2/batchnorm/mul_1: 3d76d8ab
block_3b_bn_2/batchnorm/add_1: 3d8183a2
add_6/add: 3dab0bda
block_3b_relu/Relu: 3daacb69
block_4a_conv_1/convolution: 3e1c2d37
block_4a_conv_1/BiasAdd: 3e1c2d37
block_4a_bn_1/batchnorm/mul_1: 3d5d2bc6
block_4a_bn_1/batchnorm/add_1: 3d7079f9
block_4a_relu_1/Relu: 3d0c680f
block_4a_conv_2/convolution: 3d10ee83
block_4a_conv_2/BiasAdd: 3d10ee83
block_4a_bn_2/batchnorm/mul_1: 3da95a3a
block_4a_bn_2/batchnorm/add_1: 3da6f97f
block_4a_conv_shortcut/convolution: 3dbc078d
block_4a_conv_shortcut/BiasAdd: 3dbc078d
block_4a_bn_shortcut/batchnorm/mul_1: 3d375861
block_4a_bn_shortcut/batchnorm/add_1: 3d3da10d
add_7/add: 3da716d1
block_4a_relu/Relu: 3d9cd3f3
block_4b_conv_1/convolution: 3df0637c
block_4b_conv_1/BiasAdd: 3df0637c
block_4b_bn_1/batchnorm/mul_1: 3d5f7c7f
block_4b_bn_1/batchnorm/add_1: 3d402470
block_4b_relu_1/Relu: 3d1f9f6e
block_4b_conv_2/convolution: 3d84b161
block_4b_conv_2/BiasAdd: 3d84b161
block_4b_bn_2/batchnorm/mul_1: 3df0edc7
block_4b_bn_2/batchnorm/add_1: 3db98f81
add_8/add: 3dcfc3ae
block_4b_relu/Relu: 3db9946e
output_bbox/convolution: 3db0028d
output_bbox/BiasAdd: 3db89842
output_cov/convolution: 3df4021f
output_cov/BiasAdd: 3de3d35f
output_cov/Sigmoid: 3c03e1f6
