TRT-7103-EntropyCalibration2
input: 3c010a14
(Unnamed Layer* 304) [Constant]_output: 3e112b57
(Unnamed Layer* 306) [Constant]_output: 3e112b57
(Unnamed Layer* 308) [Constant]_output: 3e112b57
(Unnamed Layer* 310) [Constant]_output: 3e112b57
(Unnamed Layer* 312) [Constant]_output: 3e112b57
(Unnamed Layer* 314) [Constant]_output: 3e112b57
(Unnamed Layer* 579) [Constant]_output: 3e9533a7
(Unnamed Layer* 581) [Constant]_output: 3e9533a7
(Unnamed Layer* 583) [Constant]_output: 3e9533a7
(Unnamed Layer* 585) [Constant]_output: 3e9533a7
(Unnamed Layer* 587) [Constant]_output: 3e9533a7
(Unnamed Layer* 589) [Constant]_output: 3e9533a7
943: 3eb1920e
(Unnamed Layer* 223) [Shuffle]_output: 3c010a14
(Unnamed Layer* 246) [Shuffle]_output: 30810204
(Unnamed Layer* 249) [Shuffle]_output: 3ca350c2
(Unnamed Layer* 252) [Shuffle]_output: 3ca554ea
(Unnamed Layer* 255) [Shuffle]_output: 3d0818a1
(Unnamed Layer* 258) [Shuffle]_output: 3d2a5f4f
(Unnamed Layer* 261) [Shuffle]_output: 3dad658b
(Unnamed Layer* 264) [Shuffle]_output: 3da0cb8f
(Unnamed Layer* 355) [Shuffle]_output: 3b810a14
(Unnamed Layer* 358) [Shuffle]_output: 3b810a14
(Unnamed Layer* 506) [Shuffle]_output: 3c010a14
(Unnamed Layer* 526) [Shuffle]_output: 30810204
(Unnamed Layer* 529) [Shuffle]_output: 3ba14c99
(Unnamed Layer* 532) [Shuffle]_output: 3be1d1a3
(Unnamed Layer* 535) [Shuffle]_output: 3c397e7d
(Unnamed Layer* 538) [Shuffle]_output: 3c59c102
(Unnamed Layer* 541) [Shuffle]_output: 3c9533a7
(Unnamed Layer* 544) [Shuffle]_output: 3ce9e245
(Unnamed Layer* 614) [Shuffle]_output: 3b810a14
(Unnamed Layer* 617) [Shuffle]_output: 3b810a14
73: 3e2f6755
74: 3e2f6755
946: 3edec2e2
77: 3dcef546
78: 3dcef546
949: 3e83e135
81: 3dc98e64
82: 3dc98e64
952: 3e5ccc17
85: 3d9a350b
86: 3d9a350b
955: 3e1c1607
89: 3d687f8a
90: 3d83a204
958: 3dfdb4d8
93: 3d24b259
117: 3d24b259
118: 3d24b259
961: 3eafce19
121: 3e0c5d81
964: 3d61becc
124: 3cef0641
967: 3db965ad
970: 3d9c2d3b
127: 3d4581d2
496: 3d305aa9
128: 3e4521f2
133: 3ceaff56
138: 3c5cf75a
143: 3e3d3b63
148: 3e4dadb0
153: 3ceaff56
158: 3c5cf75a
163: 3e3d3b63
168: 3e4dadb0
173: 3ceaff56
178: 3c5cf75a
183: 3e3d3b63
188: 3e4dadb0
189: 3ceaff56
190: 3c5cf75a
191: 3e3d3b63
208: 3e4dadb0
246: 3c027d01
251: 3d1b0126
248: 3c027d01
272: 3d30556d
279: 3ca46e47
300: 3d095e97
307: 3cd26d00
328: 3c7b632b
335: 3c89b6de
(Unnamed Layer* 329) [Shuffle]_output: 3e193bf8
(Unnamed Layer* 331) [Shuffle]_output: 3e193bf8
518: 3d305aa9
250: 3c027d01
274: 3e228bde
281: 3e1b8bf1
302: 3e228bde
309: 3e1b8bf1
330: 3e228bde
337: 3e1b8bf1
258: 3bfeb969
265: 3bfe4042
286: 3c05992d
293: 3bfd55c7
314: 3bf6ca7b
321: 3bf0cd66
340: 3e165062
341: 3e1644bd
226: 3e4dadb0
260: 3e165062
267: 3e1644bd
288: 3e165062
295: 3e1644bd
316: 3e165062
323: 3e1644bd
207: 3e3d3b63
227: 3e4dadb0
338: 3e165062
339: 3e1644bd
252: 3af67008
245: 3e4dadb0
342: 3e165062
343: 3e1644bd
492: 3af67008
253: 3b41c33b
348: 3bfd2910
353: 3bfd1574
493: 3afa620b
358: 3bfd2910
404: 3c08e193
381: 3bfd1574
427: 3c02fc95
376: 3bfd2910
422: 3c08e193
399: 3bfd1574
445: 3c02fc95
447: 3b88e193
450: 3b82fc95
548: 3d305aa9
448: 3c22db02
451: 3c22db02
570: 3d687f8a
452: 3c22db02
453: 3c22db02
571: 3d687f8a
454: 3c22db02
973: 3dad5d69
474: 3c1e60dd
574: 3d48f49e
575: 3e33b6aa
580: 3cd4b346
585: 3c8901a7
590: 3e3f470d
595: 3e42e5c6
600: 3cd4b346
605: 3c8901a7
610: 3e3f470d
615: 3e42e5c6
620: 3cd4b346
625: 3c8901a7
630: 3e3f470d
635: 3e42e5c6
636: 3cd4b346
637: 3c8901a7
638: 3e3f470d
655: 3e42e5c6
693: 3bfc05f6
698: 3d4fb8b2
695: 3bfc05f6
719: 3d72308d
726: 3d3fc063
747: 3c9b7a52
754: 3d39afb5
775: 3d1b38ad
782: 3cafb853
(Unnamed Layer* 599) [Shuffle]_output: 3e993bf8
(Unnamed Layer* 601) [Shuffle]_output: 3e993bf8
697: 3bfc05f6
721: 3dc28022
728: 3d9e2095
749: 3dc28022
756: 3d9e2095
777: 3dc28022
784: 3d9e2095
705: 3bfc05f6
712: 3bfc3ddd
733: 3bfb85c9
740: 3bf54308
761: 3bef2afb
768: 3bf14d6e
787: 3eabf948
788: 3eabf258
673: 3e42e5c6
707: 3eabf948
714: 3eabf258
735: 3eabf948
742: 3eabf258
763: 3eabf948
770: 3eabf258
654: 3e3f470d
674: 3e42e5c6
785: 3eabf948
786: 3eabf258
699: 3adfb78f
692: 3e42e5c6
789: 3eabf948
790: 3eabf258
939: 3adfb78f
700: 3b41c14e
795: 3c10d1ec
800: 3c10cc14
940: 3afa620b
805: 3c10d1ec
851: 3b23ca38
828: 3c10cc14
874: 3b0528e9
confs: 3afa620b
823: 3c10d1ec
869: 3b23ca38
846: 3c10cc14
892: 3b0528e9
894: 3aa3ca38
897: 3a8528e9
895: 3c1083ef
898: 3c1083ef
899: 3c1083ef
900: 3c1083ef
901: 3c1083ef
921: 3c1e60dd
boxes: 3c1e60dd
num_detections: 3ec18f1e
nms_boxes: 3c010a14
nms_scores: 3c078ade
nms_classes: 3f74cc18
